TRT-100100-EntropyCalibration2

input_1:0: 3bfc0810

conv1/convolution:0: 3c865a3a

Reshape__97:0_output: 31497a0a

ONNXTRT_Broadcast_output: 31497a0a

conv1/BiasAdd:0: 3c865a39

bn_conv1/batchnorm/mul__10_output: 3e28f658

bn_conv1/batchnorm/mul_1:0: 3d1329e1

bn_conv1/batchnorm/sub__11_output: 3cfac692

bn_conv1/batchnorm/add_1:0: 3cf608fc

activation_1/Relu:0: 3d1f4d30

block_1a_conv_shortcut/BiasAdd:0: 3c3b499d

block_1a_bn_shortcut/batchnorm/mul__22_output: 3e88595f

block_1a_bn_shortcut/batchnorm/mul_1:0: 3db8de19

block_1a_bn_shortcut/batchnorm/sub__23_output: 3cce92ff

block_1a_bn_shortcut/batchnorm/add_1:0: 3c9e694c

block_1a_conv_1/convolution:0: 3d3c0e12

Reshape__99:0_output: 316afbeb

ONNXTRT_Broadcast_1_output: 316afbeb

block_1a_conv_1/BiasAdd:0: 3d3c0e12

block_1a_bn_1/batchnorm/mul__14_output: 3e51f9d8

block_1a_bn_1/batchnorm/mul_1:0: 3e036ff0

block_1a_bn_1/batchnorm/sub__15_output: 3d4f0074

block_1a_bn_1/batchnorm/add_1:0: 3d167e85

block_1a_relu_1/Relu:0: 3d280ecc

block_1a_conv_2/convolution:0: 3d1a4eb2

Reshape__101:0_output: 315986ce

ONNXTRT_Broadcast_3_output: 315986ce

block_1a_conv_2/BiasAdd:0: 3d1a4eb1

block_1a_bn_2/batchnorm/mul__20_output: 3e32badb

block_1a_bn_2/batchnorm/mul_1:0: 3da8f89e

block_1a_bn_2/batchnorm/sub__21_output: 3c603cf6

block_1a_bn_2/batchnorm/add_1:0: 3c975f12

add_1/add:0: 3d06d605

block_1a_relu/Relu:0: 3d9293ea

block_1b_conv_1/convolution:0: 3d51905f

Reshape__103:0_output: 30fc8fa7

ONNXTRT_Broadcast_5_output: 30fc8fa7

block_1b_conv_1/BiasAdd:0: 3d51905f

block_1b_bn_1/batchnorm/mul__26_output: 3e974b45

block_1b_bn_1/batchnorm/mul_1:0: 3df8dc2a

block_1b_bn_1/batchnorm/sub__27_output: 3cea57d1

block_1b_bn_1/batchnorm/add_1:0: 3d210ccd

block_1b_relu_1/Relu:0: 3dc6dc11

block_1b_conv_2/convolution:0: 3d29c9bb

Reshape__105:0_output: 313b780b

ONNXTRT_Broadcast_7_output: 313b780b

block_1b_conv_2/BiasAdd:0: 3d29c9bc

block_1b_bn_2/batchnorm/mul__30_output: 3e79e38c

block_1b_bn_2/batchnorm/mul_1:0: 3e48012d

block_1b_bn_2/batchnorm/sub__31_output: 3d1902a0

block_1b_bn_2/batchnorm/add_1:0: 3d19ad74

add_2/add:0: 3d19ad74

block_1b_relu/Relu:0: 3e0c75f0

block_2a_conv_shortcut/BiasAdd:0: 3c935b1f

block_2a_bn_shortcut/batchnorm/mul__42_output: 3e8c3052

block_2a_bn_shortcut/batchnorm/mul_1:0: 3d5c2597

block_2a_bn_shortcut/batchnorm/sub__43_output: 3c4192f2

block_2a_bn_shortcut/batchnorm/add_1:0: 3c69b8b7

block_2a_conv_1/convolution:0: 3d746c17

Reshape__107:0_output: 31466a5d

ONNXTRT_Broadcast_9_output: 31466a5d

block_2a_conv_1/BiasAdd:0: 3d746c17

block_2a_bn_1/batchnorm/mul__34_output: 3e479534

block_2a_bn_1/batchnorm/mul_1:0: 3dd4e3ae

block_2a_bn_1/batchnorm/sub__35_output: 3cfa224c

block_2a_bn_1/batchnorm/add_1:0: 3d2ca12e

block_2a_relu_1/Relu:0: 3dd85be3

block_2a_conv_2/convolution:0: 3d3e82d2

Reshape__109:0_output: 31485f54

ONNXTRT_Broadcast_11_output: 31485f54

block_2a_conv_2/BiasAdd:0: 3d3e82d2

block_2a_bn_2/batchnorm/mul__40_output: 3eab2daf

block_2a_bn_2/batchnorm/mul_1:0: 3e11bc0c

block_2a_bn_2/batchnorm/sub__41_output: 3c62ca8e

block_2a_bn_2/batchnorm/add_1:0: 3cd704e3

add_3/add:0: 3cde06c8

block_2a_relu/Relu:0: 3d9994a5

block_2b_conv_1/convolution:0: 3d0addb0

Reshape__111:0_output: 3183b2a4

ONNXTRT_Broadcast_13_output: 3183b2a4

block_2b_conv_1/BiasAdd:0: 3d0addb0

block_2b_bn_1/batchnorm/mul__46_output: 3d54291b

block_2b_bn_1/batchnorm/mul_1:0: 3dc3d550

block_2b_bn_1/batchnorm/sub__47_output: 3cf73b3a

block_2b_bn_1/batchnorm/add_1:0: 3dbb24e5

block_2b_relu_1/Relu:0: 3dbe68ba

block_2b_conv_2/convolution:0: 3cca1dd6

Reshape__113:0_output: 317b7f1f

ONNXTRT_Broadcast_15_output: 317b7f1f

block_2b_conv_2/BiasAdd:0: 3cca1dd5

block_2b_bn_2/batchnorm/mul__50_output: 3e96fc29

block_2b_bn_2/batchnorm/mul_1:0: 3dd3acb4

block_2b_bn_2/batchnorm/sub__51_output: 3d20fdd0

block_2b_bn_2/batchnorm/add_1:0: 3cfe1932

add_4/add:0: 3d0090f3

block_2b_relu/Relu:0: 3e1ecfbf

block_3a_conv_shortcut/BiasAdd:0: 3c0e7c8b

block_3a_bn_shortcut/batchnorm/mul__62_output: 3e6d3b8f

block_3a_bn_shortcut/batchnorm/mul_1:0: 3cb1023d

block_3a_bn_shortcut/batchnorm/sub__63_output: 3c3eb7e0

block_3a_bn_shortcut/batchnorm/add_1:0: 3c268d2f

block_3a_conv_1/convolution:0: 3d5294d3

Reshape__115:0_output: 3182381b

ONNXTRT_Broadcast_17_output: 3182381b

block_3a_conv_1/BiasAdd:0: 3d5294d3

block_3a_bn_1/batchnorm/mul__54_output: 3da5597b

block_3a_bn_1/batchnorm/mul_1:0: 3da277a4

block_3a_bn_1/batchnorm/sub__55_output: 3c984ac3

block_3a_bn_1/batchnorm/add_1:0: 3d804ba8

block_3a_relu_1/Relu:0: 3df1e01b

block_3a_conv_2/convolution:0: 3d6927b8

Reshape__117:0_output: 3163ac3e

ONNXTRT_Broadcast_19_output: 3163ac3e

block_3a_conv_2/BiasAdd:0: 3d6927b8

block_3a_bn_2/batchnorm/mul__60_output: 3e93e96c

block_3a_bn_2/batchnorm/mul_1:0: 3dfab0fb

block_3a_bn_2/batchnorm/sub__61_output: 3c7c3dc4

block_3a_bn_2/batchnorm/add_1:0: 3ce55385

add_5/add:0: 3ce2a5b0

block_3a_relu/Relu:0: 3d9be006

block_3b_conv_1/convolution:0: 3ce50b30

Reshape__119:0_output: 311fe112

ONNXTRT_Broadcast_21_output: 311fe112

block_3b_conv_1/BiasAdd:0: 3ce50b30

block_3b_bn_1/batchnorm/mul__66_output: 3e6b03b4

block_3b_bn_1/batchnorm/mul_1:0: 3d6a948b

block_3b_bn_1/batchnorm/sub__67_output: 3d0d76e4

block_3b_bn_1/batchnorm/add_1:0: 3cdba0d1

block_3b_relu_1/Relu:0: 3df7b52a

block_3b_conv_2/convolution:0: 3d1132a9

Reshape__121:0_output: 314740c3

ONNXTRT_Broadcast_23_output: 314740c3

block_3b_conv_2/BiasAdd:0: 3d1132a9

block_3b_bn_2/batchnorm/mul__70_output: 3ebfc120

block_3b_bn_2/batchnorm/mul_1:0: 3e16971d

block_3b_bn_2/batchnorm/sub__71_output: 3dc32208

block_3b_bn_2/batchnorm/add_1:0: 3cf87ea6

add_6/add:0: 3cf87ea6

block_3b_relu/Relu:0: 3dfcbe86

block_4a_conv_shortcut/BiasAdd:0: 3db14a5c

block_4a_bn_shortcut/batchnorm/mul__82_output: 3e603ab8

block_4a_bn_shortcut/batchnorm/mul_1:0: 3d3e976b

block_4a_bn_shortcut/batchnorm/sub__83_output: 3c466264

block_4a_bn_shortcut/batchnorm/add_1:0: 3ba147f2

block_4a_conv_1/convolution:0: 3e5562af

Reshape__123:0_output: 316f2777

ONNXTRT_Broadcast_25_output: 316f2777

block_4a_conv_1/BiasAdd:0: 3e5562af

block_4a_bn_1/batchnorm/mul__74_output: 3e78b2e7

block_4a_bn_1/batchnorm/mul_1:0: 3dd0484e

block_4a_bn_1/batchnorm/sub__75_output: 3d86679d

block_4a_bn_1/batchnorm/add_1:0: 3c78c419

block_4a_relu_1/Relu:0: 3d21395c

block_4a_conv_2/convolution:0: 3d31dabc

Reshape__125:0_output: 31881d5c

ONNXTRT_Broadcast_27_output: 31881d5c

block_4a_conv_2/BiasAdd:0: 3d31dabc

block_4a_bn_2/batchnorm/mul__80_output: 3e885099

block_4a_bn_2/batchnorm/mul_1:0: 3d7e02dd

block_4a_bn_2/batchnorm/sub__81_output: 3c5f5b4a

block_4a_bn_2/batchnorm/add_1:0: 3c446c1c

add_7/add:0: 3c41c367

block_4b_conv_1/convolution:0: 3dbd165e

Reshape__127:0_output: 312fba3e

ONNXTRT_Broadcast_29_output: 312fba3e

block_4b_conv_1/BiasAdd:0: 3dbd165e

block_4b_bn_1/batchnorm/mul__86_output: 3e5d6bd7

block_4b_bn_1/batchnorm/mul_1:0: 3de586a4

block_4b_bn_1/batchnorm/sub__87_output: 3c3a5029

block_4b_bn_1/batchnorm/add_1:0: 3c9875dd

block_4b_relu_1/Relu:0: 3d3d40bd

block_4b_conv_2/convolution:0: 3d49bbad

Reshape__129:0_output: 31599262

ONNXTRT_Broadcast_31_output: 31599262

block_4b_conv_2/BiasAdd:0: 3d49bbad

block_4b_bn_2/batchnorm/mul__90_output: 3edb7a2d

block_4b_bn_2/batchnorm/mul_1:0: 3e68cc2e

block_4b_bn_2/batchnorm/sub__91_output: 3d250534

block_4b_bn_2/batchnorm/add_1:0: 3d8dd797

add_8/add:0: 3d911685

block_4b_relu/Relu:0: 3e206d85

output_cov/convolution:0: 3e74d8c8

Reshape__131:0_output: 33ef18bb

ONNXTRT_Broadcast_33_output: 33ef18bb

output_cov/BiasAdd:0: 3e74d8cf

output_cov/Sigmoid:0: 3bf2b23b

output_bbox/convolution:0: 3d8550bb

Reshape__133:0_output: 3bd8ea69

ONNXTRT_Broadcast_36_output: 3bd8ea69

output_bbox/BiasAdd:0: 3d9a4b7a